02
17
EF
F8
E2
30
22
09
1D
11
1D
F6
DB
12
00
E6
B5
08
D4
0E
FF
A6
E8
EC
F0
DE
18
12
14
13
18
DF
EA
DC
0D
18
D9
FA
13
D7
DC
34
1C
16
10
E8
E2
E1
0F
1E
18
17
15
00
EB
11
0F
A7
DA
E3
1A
F2
EA
16
05
06
19
0C
27
08
F7
FA
0B
0E
E6
E0
10
FD
F4
FA
FD
04
FC
2C
DB
E3
F4
16
F4
39
0F
DE
E2
E6
0D
DA
11
E9
02
19
1C
0A
81
0F
F7
02
F9
D3
F2
ED
FC
09
45
06
16
02
0E
F7
0C
12
19
0F
01
E2
2A
F5
ED
DD
0C
F5
CF
BC
14
B0
EC
FF
18
DC
F3
34
E8
09
EB
2C
03
06
08
14
DF
03
E5
EE
0A
E7
13
23
03
D8
F3
2F
FD
EA
01
1B
F4
0F
0D
F9
0B
38
0E
ED
FC
F2
04
1A
00
99
09
EE
17
1C
13
01
3B
EE
FE
D8
F8
0A
E8
21
24
0C
1E
B0
E9
D2
3A
E7
F2
0A
CF
F3
1A
16
04
FF
84
E8
F3
22
25
41
C9
13
F0
31
FA
04
EB
2D
21
06
D7
E4
E7
4B
FF
3E
FE
00
EA
B8
FD
1A
10
F6
ED
EF
23
FC
21
EB
02
0A
3A
18
DB
05
06
18
22
C7
E5
E2
FC
15
04
F6
DF
E5
16
1A
E3
01
FF
F3
14
10
22
14
10
EB
E8
CD
12
03
EF
D3
33
01
11
0A
DE
01
10
13
05
EA
F9
0C
00
0B
E8
1D
00
B6
1C
00
F4
04
26
05
EF
33
F3
D9
DE
09
1B
05
DB
F6
0F
03
FE
10
01
18